9790,
9790,
9790,
9790,
9790,
9790,
9790,
9790,
9790,
9790,
9790,
9790,
9790,
9790,
9790,
9790,
9790,
9790,
9790,
9790,
9790,
9790,
9790,
9790,
9790,
9790,
9790,
9790,
9790,
9790,
9790,
9790,
9790,
9790,
9790,
9790,
9790,
9790,
9790,
9790,
9790,
9790,
9790,
9790,
9790,
9790,
9790,
9790,
9790,
9790,
9790,
9790,
9790,
9790,
9790,
9790,
9790,
9790,
9790,
9790,
9790,
9790,
9790,
9790,
9790,
9790,
8731,
0,
0,
0,
0,
0,
0,
3920,
8932,
9790,
9790,
9790,
9790,
9790,
9790,
9790,
9790,
9790,
9790,
9790,
9790,
9790,
9790,
9790,
9790,
9790,
9790,
9790,
5690,
0,
0,
0,
0,
0,
0,
0,
5816,
9790,
9790,
9790,
9790,
9790,
9790,
9790,
9790,
9790,
9790,
9790,
9790,
9790,
9790,
9790,
9790,
9790,
9790,
7768,
0,
0,
0,
0,
0,
0,
0,
0,
1796,
9790,
9790,
9790,
9790,
9790,
9790,
9790,
9790,
9790,
9790,
9790,
9790,
9790,
9790,
9790,
9790,
9790,
0,
0,
0,
0,
0,
0,
0,
0,
0,
0,
0,
6214,
8075,
9790,
9790,
9790,
9790,
9790,
9790,
9790,
9790,
9790,
9790,
9790,
9790,
9790,
9790,
9790,
0,
0,
0,
0,
0,
0,
0,
0,
0,
0,
0,
0,
1215,
8379,
9790,
9790,
9790,
9790,
9790,
9790,
9790,
9790,
9790,
9790,
9790,
9790,
9790,
0,
0,
0,
0,
0,
0,
0,
0,
0,
0,
0,
0,
0,
0,
1123,
9790,
9790,
9790,
9790,
9790,
9790,
9790,
9790,
9790,
9790,
9790,
9790,
3723,
0,
0,
0,
0,
0,
0,
0,
12183,
0,
0,
0,
0,
0,
0,
0,
6885,
9790,
9790,
9790,
9790,
9790,
9790,
9790,
9790,
9790,
9790,
6708,
0,
0,
0,
0,
0,
0,
11056,
41579,
59335,
63696,
40329,
0,
0,
0,
0,
0,
0,
6618,
9652,
9790,
9790,
9790,
9790,
9790,
9790,
9790,
9790,
4664,
0,
0,
0,
0,
0,
25379,
52710,
61542,
76492,
98902,
97212,
61773,
0,
0,
0,
0,
0,
0,
8658,
9790,
9790,
9790,
9790,
9790,
9790,
9790,
9790,
6877,
0,
0,
0,
0,
17658,
52527,
53630,
68300,
70812,
77805,
100025,
72598,
32113,
0,
0,
0,
0,
0,
7430,
9790,
9790,
9790,
9790,
9790,
9790,
9790,
9790,
9831,
9093,
0,
17327,
27015,
38349,
49805,
61503,
52308,
49939,
40352,
57329,
59455,
30392,
0,
0,
0,
0,
0,
2555,
9790,
9790,
9790,
9790,
9790,
9790,
9790,
9790,
776,
7998,
5453,
25850,
27344,
30073,
43631,
47502,
36165,
25382,
15118,
15059,
30717,
14120,
6676,
0,
0,
0,
0,
3150,
9790,
9790,
9790,
9790,
9790,
9790,
9790,
9790,
0,
0,
0,
0,
9105,
12800,
20933,
36850,
17942,
8394,
2049,
0,
0,
0,
0,
0,
0,
0,
0,
2051,
9790,
9790,
9790,
9790,
9790,
9790,
9790,
9790,
0,
0,
0,
0,
0,
0,
10784,
17853,
10730,
0,
0,
0,
0,
0,
0,
0,
0,
498,
9423,
14105,
9790,
9790,
9790,
9790,
9790,
9790,
9790,
9790,
6736,
0,
0,
0,
0,
0,
0,
9790,
0,
0,
0,
0,
0,
0,
0,
0,
10068,
17113,
24103,
14707,
9790,
9790,
9790,
9790,
9790,
9790,
9790,
9790,
14313,
13244,
0,
0,
0,
0,
0,
0,
0,
0,
0,
0,
0,
0,
0,
24943,
9281,
32277,
25985,
11972,
9790,
9790,
9790,
9790,
9790,
9790,
9790,
9790,
25487,
28032,
7783,
0,
0,
0,
0,
0,
0,
0,
0,
0,
0,
0,
10369,
16609,
24916,
32040,
20968,
10730,
9790,
9790,
9790,
9790,
9790,
9790,
9790,
9790,
38589,
39999,
17658,
0,
0,
0,
0,
0,
0,
0,
0,
0,
12523,
28734,
26127,
18454,
27413,
26817,
11701,
9790,
9790,
9790,
9790,
9790,
9790,
9790,
9790,
9790,
37598,
64994,
47016,
19567,
0,
0,
0,
0,
0,
0,
0,
37579,
56612,
41479,
41760,
33131,
29793,
15429,
9790,
9790,
9790,
9790,
9790,
9790,
9790,
9790,
9790,
9790,
24395,
73284,
75940,
73796,
48353,
15693,
0,
0,
13385,
36969,
53762,
56196,
68570,
65916,
40457,
44692,
22539,
9790,
9790,
9790,
9790,
9790,
9790,
9790,
9790,
9790,
9790,
9790,
13912,
48135,
79104,
92636,
100830,
100812,
91290,
80193,
72815,
67730,
73787,
67480,
57923,
51765,
39255,
27898,
14757,
9790,
9790,
9790,
9790,
9790,
9790,
9790,
9790,
9790,
9790,
9790,
10238,
20649,
47840,
70720,
100246,
116377,
114005,
107186,
105768,
88576,
70298,
61543,
41554,
31018,
17682,
11475,
10103,
9790,
9790,
9790,
9790,
9790,
9790,
9790,
9790,
9790,
9790,
9790,
9790,
10685,
16956,
30386,
55660,
75675,
87909,
84865,
82657,
75926,
50870,
37003,
27593,
14227,
9790,
9790,
9790,
9790,
9790,
9790,
9790,
9790,
9790,
9790,
9790,
9790,
9790,
9790,
9790,
9790,
9790,
10830,
18243,
27124,
35675,
35336,
35364,
33575,
21219,
15984,
13812,
10730,
9790,
9790,
9790,
9790,
9790,
9790,
9790,
9790,
9790,
9790,
9790,
9790,
9790,
9790,
9790,
9790,
9790,
9790,
9790,
9790,
9790,
9790,
9790,
9790,
9790,
9790,
9790,
9790,
9790,
9790,
9790,
9790,
9790,
9790,
9790,
9790,
9790,
9790,
9790,
9790,
9790,
9790,
9790,
9790,
9790,
9790,
9790,
9790,
9790,
9790,
9790,
9790,
9790,
9790,
9790,
9790,
9790,
9790,
9790,
9790,
9790,
9790,
9790,
9790,
9790,
5580,
5580,
5580,
5580,
5580,
5580,
5580,
5580,
5580,
5580,
5580,
5580,
5580,
5580,
5580,
5580,
5580,
5580,
5580,
5580,
5580,
5580,
5580,
5580,
5580,
5580,
5580,
5580,
5580,
5580,
5580,
5580,
5580,
5580,
5580,
5580,
5580,
5580,
5580,
5580,
5580,
5580,
5580,
5580,
5580,
5580,
5580,
5580,
5580,
5580,
5580,
5580,
5580,
5580,
5580,
5580,
5580,
5580,
5580,
5580,
5580,
5580,
5580,
5580,
5580,
5580,
5557,
5553,
8993,
13343,
7364,
0,
0,
0,
3974,
5580,
5580,
5580,
5580,
5580,
5580,
5580,
5580,
5580,
5580,
5580,
5580,
5580,
5580,
5580,
5580,
5580,
5580,
5580,
6045,
14027,
33333,
35919,
0,
0,
0,
0,
0,
5580,
5580,
5580,
5580,
5580,
5580,
5580,
5580,
5580,
5580,
5580,
5580,
5580,
5580,
5580,
5580,
5580,
5580,
5537,
8421,
37291,
62600,
36315,
0,
0,
0,
0,
0,
5580,
5580,
5580,
5580,
5580,
5580,
5580,
5580,
5580,
5580,
5580,
5580,
5580,
5580,
5580,
5580,
5580,
5359,
8978,
26231,
64941,
67012,
19136,
0,
0,
0,
0,
0,
0,
2368,
5580,
5580,
5580,
5580,
5580,
5580,
5580,
5580,
5580,
5580,
5580,
5580,
5580,
5580,
5580,
10464,
29151,
56587,
62266,
37505,
0,
0,
0,
0,
0,
0,
0,
0,
2938,
5580,
5580,
5580,
5580,
5580,
5580,
5580,
5580,
5580,
5580,
5580,
5580,
5580,
5214,
31006,
60439,
61962,
27840,
0,
0,
0,
0,
0,
0,
0,
0,
0,
0,
5580,
5580,
5580,
5580,
5580,
5580,
5580,
5580,
5580,
5580,
5580,
5580,
5453,
15634,
63236,
77840,
39740,
0,
0,
0,
0,
0,
0,
0,
0,
0,
0,
0,
141,
5580,
5580,
5580,
5580,
5580,
5580,
5580,
5580,
5580,
5580,
5515,
9005,
40894,
80022,
69976,
5727,
0,
0,
0,
0,
0,
0,
0,
0,
0,
0,
0,
0,
0,
5321,
5580,
5580,
5580,
5580,
5580,
5580,
5580,
5580,
7074,
24426,
68995,
80862,
44510,
0,
0,
0,
0,
0,
0,
0,
12187,
0,
0,
0,
0,
0,
0,
3470,
5580,
5580,
5580,
5580,
5580,
5580,
5580,
5580,
9933,
44092,
79535,
76999,
5934,
0,
0,
0,
0,
0,
0,
18124,
35728,
10450,
0,
0,
0,
0,
0,
1371,
5580,
5580,
5580,
5580,
5580,
5580,
5580,
5580,
12488,
58783,
89601,
62637,
0,
0,
0,
0,
0,
0,
0,
24625,
63753,
51309,
0,
0,
0,
0,
0,
0,
5580,
5580,
5580,
5580,
5580,
5580,
5580,
5580,
12975,
66946,
101047,
31830,
0,
0,
0,
0,
0,
0,
0,
20735,
72660,
79803,
34206,
0,
0,
0,
0,
0,
5580,
5580,
5580,
5580,
5580,
5580,
5580,
5580,
17926,
75780,
101731,
0,
0,
0,
0,
0,
0,
4231,
5978,
18274,
71183,
92711,
34727,
0,
0,
0,
0,
0,
5580,
5580,
5580,
5580,
5580,
5580,
5580,
5580,
30114,
81845,
94254,
0,
0,
0,
0,
0,
3619,
6320,
13047,
39852,
73541,
67790,
7864,
0,
0,
0,
0,
0,
5580,
5580,
5580,
5580,
5580,
5580,
5580,
5580,
43314,
86043,
83438,
0,
0,
0,
0,
5580,
5214,
18461,
39951,
58488,
50891,
21999,
0,
0,
0,
0,
0,
0,
5580,
5580,
5580,
5580,
5580,
5580,
5580,
5580,
49632,
95256,
72271,
0,
0,
0,
0,
7959,
10493,
27624,
41727,
32924,
12529,
0,
0,
0,
0,
0,
0,
3237,
5580,
5580,
5580,
5580,
5580,
5580,
5580,
5580,
50754,
97855,
65879,
0,
0,
0,
0,
5381,
7239,
11589,
15237,
0,
0,
0,
0,
0,
0,
0,
0,
3619,
5580,
5580,
5580,
5580,
5580,
5580,
5580,
5580,
45852,
89512,
65494,
0,
0,
0,
0,
0,
0,
0,
0,
0,
0,
0,
0,
0,
0,
0,
1594,
5580,
5580,
5580,
5580,
5580,
5580,
5580,
5580,
5580,
33386,
81621,
67378,
11864,
0,
0,
0,
0,
0,
0,
0,
0,
0,
0,
0,
0,
0,
0,
5580,
5580,
5580,
5580,
5580,
5580,
5580,
5580,
5580,
5580,
18135,
65414,
61757,
28118,
0,
0,
0,
0,
0,
0,
0,
0,
0,
0,
0,
0,
0,
5580,
5580,
5580,
5580,
5580,
5580,
5580,
5580,
5580,
5580,
5580,
8925,
37299,
52432,
34493,
14880,
0,
0,
0,
0,
0,
0,
0,
0,
0,
0,
0,
0,
5580,
5580,
5580,
5580,
5580,
5580,
5580,
5580,
5580,
5580,
5580,
5927,
14352,
33022,
31792,
22092,
3141,
0,
0,
0,
0,
0,
0,
0,
0,
0,
2596,
4926,
5580,
5580,
5580,
5580,
5580,
5580,
5580,
5580,
5580,
5580,
5580,
5580,
6274,
11245,
18611,
25579,
12934,
0,
0,
0,
0,
0,
0,
0,
0,
5580,
5580,
5580,
5580,
5580,
5580,
5580,
5580,
5580,
5580,
5580,
5580,
5580,
5580,
5580,
5580,
5580,
6386,
12260,
15221,
7869,
0,
0,
0,
0,
0,
0,
3619,
5580,
5580,
5580,
5580,
5580,
5580,
5580,
5580,
5580,
5580,
5580,
5580,
5580,
5580,
5580,
5580,
5580,
5580,
5580,
5580,
5580,
5580,
5580,
5580,
5580,
5580,
5580,
5580,
5580,
5580,
5580,
5580,
5580,
5580,
5580,
5580,
5580,
5580,
5580,
5580,
5580,
5580,
5580,
5580,
5580,
5580,
5580,
5580,
5580,
5580,
5580,
5580,
5580,
5580,
5580,
5580,
5580,
5580,
5580,
5580,
5580,
5580,
5580,
5580,
5580,
20085,
20085,
20085,
20085,
20085,
20085,
20085,
20085,
20085,
20085,
20085,
20085,
20085,
20085,
20085,
20085,
20085,
20085,
20085,
20085,
20085,
20085,
20085,
20085,
20085,
20085,
20085,
20085,
20085,
20085,
20085,
20085,
20085,
20085,
20085,
20085,
20085,
20085,
20085,
20085,
20085,
20085,
20085,
20085,
20085,
20085,
20085,
20085,
20085,
20085,
20085,
20085,
20085,
20085,
20085,
20085,
20085,
20085,
20085,
20085,
20085,
20085,
20085,
20085,
20085,
20085,
20316,
22693,
17514,
3865,
0,
0,
0,
7339,
18581,
20085,
20085,
20085,
20085,
20085,
20085,
20085,
20085,
20085,
20085,
20085,
20085,
20085,
20085,
20085,
20085,
20085,
20085,
20085,
21346,
29420,
11306,
0,
0,
0,
0,
0,
14460,
20085,
20085,
20085,
20085,
20085,
20085,
20085,
20085,
20085,
20085,
20085,
20085,
20085,
20085,
20085,
20085,
20085,
20085,
20526,
25013,
24480,
0,
0,
0,
0,
0,
3358,
15010,
20085,
20085,
20085,
20085,
20085,
20085,
20085,
20085,
20085,
20085,
20085,
20085,
20085,
20085,
20085,
20085,
20085,
22394,
19594,
18104,
0,
0,
0,
0,
0,
0,
7027,
5330,
8908,
17076,
20085,
20085,
20085,
20085,
20085,
20085,
20085,
20085,
20085,
20085,
20085,
20085,
20085,
20085,
20085,
30240,
14447,
0,
0,
0,
0,
0,
0,
0,
0,
0,
0,
3700,
17610,
20085,
20085,
20085,
20085,
20085,
20085,
20085,
20085,
20085,
20085,
20085,
20085,
20085,
23905,
29586,
0,
0,
0,
0,
0,
0,
0,
0,
0,
0,
0,
0,
7095,
20085,
20085,
20085,
20085,
20085,
20085,
20085,
20085,
20085,
20085,
20085,
20085,
21408,
29643,
7928,
0,
0,
0,
0,
0,
0,
0,
0,
0,
0,
0,
0,
0,
14990,
20085,
20085,
20085,
20085,
20085,
20085,
20085,
20085,
20085,
20085,
20757,
26136,
21339,
0,
0,
0,
0,
0,
0,
0,
0,
0,
0,
0,
0,
0,
0,
0,
14127,
19842,
20085,
20085,
20085,
20085,
20085,
20085,
20085,
20085,
22271,
32725,
0,
0,
0,
0,
0,
0,
0,
0,
2003,
3635,
0,
0,
0,
0,
0,
0,
2992,
18317,
20085,
20085,
20085,
20085,
20085,
20085,
20085,
20085,
23058,
27621,
0,
0,
0,
0,
0,
0,
20394,
43039,
35050,
3888,
0,
0,
0,
0,
0,
0,
6708,
18158,
20085,
20085,
20085,
20085,
20085,
20085,
20085,
20085,
20979,
4642,
0,
0,
0,
0,
0,
45915,
80498,
70716,
41695,
0,
0,
0,
0,
0,
0,
1584,
10163,
13879,
20085,
20085,
20085,
20085,
20085,
20085,
20085,
20085,
18837,
0,
0,
0,
0,
0,
48491,
88292,
76818,
48129,
27604,
0,
0,
0,
0,
0,
0,
14208,
43466,
21262,
20085,
20085,
20085,
20085,
20085,
20085,
20085,
20085,
24369,
0,
0,
0,
0,
39833,
84848,
70129,
38605,
22092,
20376,
10620,
0,
0,
0,
0,
0,
36332,
53851,
32360,
20085,
20085,
20085,
20085,
20085,
20085,
20085,
20085,
29586,
0,
0,
0,
0,
52393,
72537,
37725,
22434,
24033,
19676,
5807,
0,
0,
0,
0,
0,
64067,
71477,
38069,
20085,
20085,
20085,
20085,
20085,
20085,
20085,
20085,
23974,
0,
0,
0,
0,
45674,
58443,
20085,
23905,
22496,
5877,
0,
0,
0,
0,
0,
24976,
81287,
82127,
37440,
20085,
20085,
20085,
20085,
20085,
20085,
20085,
20085,
6016,
0,
0,
0,
0,
42904,
41967,
0,
0,
0,
0,
0,
0,
0,
0,
0,
75930,
89609,
64999,
25358,
20085,
20085,
20085,
20085,
20085,
20085,
20085,
20085,
0,
0,
0,
0,
0,
23175,
2913,
0,
0,
0,
0,
0,
0,
0,
0,
31922,
85718,
84756,
45144,
22434,
20085,
20085,
20085,
20085,
20085,
20085,
20085,
20085,
0,
0,
0,
0,
0,
0,
0,
0,
0,
0,
0,
0,
0,
0,
10005,
86837,
91027,
56448,
24862,
20085,
20085,
20085,
20085,
20085,
20085,
20085,
20085,
20085,
0,
0,
0,
0,
0,
0,
0,
0,
0,
0,
0,
0,
0,
0,
76043,
96643,
80001,
34179,
20085,
20085,
20085,
20085,
20085,
20085,
20085,
20085,
20085,
20085,
0,
0,
0,
0,
0,
0,
0,
0,
0,
0,
0,
0,
0,
60631,
102436,
80850,
52823,
20085,
20085,
20085,
20085,
20085,
20085,
20085,
20085,
20085,
20085,
20085,
3982,
0,
0,
0,
0,
0,
0,
0,
0,
0,
0,
17353,
61786,
82885,
78854,
52161,
32440,
20085,
20085,
20085,
20085,
20085,
20085,
20085,
20085,
20085,
20085,
20085,
16243,
0,
0,
0,
0,
0,
0,
0,
0,
7790,
42376,
74180,
84873,
61494,
37550,
23459,
20868,
20085,
20085,
20085,
20085,
20085,
20085,
20085,
20085,
20085,
20085,
20085,
20085,
12402,
0,
0,
0,
0,
0,
5767,
25223,
49856,
72463,
68059,
53211,
30996,
20085,
20085,
20085,
20085,
20085,
20085,
20085,
20085,
20085,
20085,
20085,
20085,
20085,
20085,
20085,
20085,
20085,
11163,
0,
0,
0,
26464,
43220,
44865,
39149,
31552,
27624,
22434,
20085,
20085,
20085,
20085,
20085,
20085,
20085,
20085,
20085,
20085,
20085,
20085,
20085,
20085,
20085,
20085,
20085,
20085,
20085,
20085,
20085,
20085,
20085,
20085,
20085,
20085,
20085,
20085,
20085,
20085,
20085,
20085,
20085,
20085,
20085,
20085,
20085,
20085,
20085,
20085,
20085,
20085,
20085,
20085,
20085,
20085,
20085,
20085,
20085,
20085,
20085,
20085,
20085,
20085,
20085,
20085,
20085,
20085,
20085,
20085,
20085,
20085,
20085,
20085,
20085,
73,
73,
73,
73,
73,
73,
73,
73,
73,
73,
73,
73,
73,
73,
73,
73,
73,
73,
73,
73,
73,
73,
73,
73,
73,
73,
73,
73,
73,
73,
73,
73,
73,
73,
73,
73,
73,
73,
73,
73,
73,
73,
73,
73,
73,
73,
73,
73,
73,
73,
73,
73,
73,
73,
73,
73,
73,
73,
73,
73,
73,
73,
73,
73,
73,
73,
625,
7935,
17893,
26895,
30441,
23662,
7721,
0,
0,
73,
73,
73,
73,
73,
73,
73,
73,
73,
73,
73,
73,
73,
73,
73,
73,
73,
73,
73,
2318,
19875,
42620,
69008,
74454,
44811,
18290,
0,
0,
73,
73,
73,
73,
73,
73,
73,
73,
73,
73,
73,
73,
73,
73,
73,
73,
73,
73,
1127,
12688,
42738,
89007,
122090,
107175,
59260,
24068,
0,
0,
73,
73,
73,
73,
73,
73,
73,
73,
73,
73,
73,
73,
73,
73,
73,
73,
73,
5597,
13650,
35811,
83617,
123479,
159062,
140101,
87583,
32460,
0,
949,
1154,
0,
73,
73,
73,
73,
73,
73,
73,
73,
73,
73,
73,
73,
73,
73,
73,
16654,
36500,
77571,
124971,
144747,
160887,
146882,
107763,
72549,
34714,
20578,
9551,
0,
0,
73,
73,
73,
73,
73,
73,
73,
73,
73,
73,
73,
73,
73,
9213,
35137,
78495,
120868,
149640,
155735,
160614,
144832,
130003,
104300,
77564,
47737,
27773,
4413,
0,
73,
73,
73,
73,
73,
73,
73,
73,
73,
73,
73,
73,
3237,
19470,
64488,
111113,
156298,
160910,
151690,
142113,
130520,
119822,
116758,
104398,
80319,
41280,
15706,
0,
0,
73,
73,
73,
73,
73,
73,
73,
73,
73,
73,
1680,
14852,
46853,
94970,
142276,
162370,
158712,
131961,
111330,
88721,
77913,
101070,
122310,
110754,
75924,
25343,
9390,
0,
0,
0,
73,
73,
73,
73,
73,
73,
73,
73,
3058,
28784,
70813,
120129,
161915,
148680,
125249,
92849,
57447,
39722,
36825,
67582,
107946,
123869,
115221,
61234,
20813,
8788,
0,
0,
73,
73,
73,
73,
73,
73,
73,
73,
5530,
44466,
89739,
133913,
154448,
122538,
81680,
42457,
20479,
9533,
5614,
33496,
82641,
125570,
133894,
96588,
42187,
10764,
0,
0,
73,
73,
73,
73,
73,
73,
73,
73,
6207,
49417,
100443,
135652,
137813,
71071,
29464,
11691,
4383,
0,
0,
16321,
59608,
111720,
147968,
128199,
67577,
17260,
0,
0,
73,
73,
73,
73,
73,
73,
73,
73,
11517,
53292,
107111,
131174,
104912,
44416,
0,
0,
0,
2812,
2663,
10758,
48674,
101690,
151723,
138912,
81379,
22929,
0,
0,
73,
73,
73,
73,
73,
73,
73,
73,
19026,
63252,
115730,
125701,
81706,
22674,
0,
0,
2009,
1496,
3866,
21487,
61393,
112555,
156856,
139942,
78331,
22106,
0,
0,
73,
73,
73,
73,
73,
73,
73,
73,
29129,
74971,
123852,
126721,
70596,
8866,
0,
3720,
625,
8044,
20747,
50157,
100523,
135056,
149911,
115800,
61164,
12022,
0,
0,
73,
73,
73,
73,
73,
73,
73,
73,
35678,
83697,
134241,
128337,
65355,
10265,
0,
73,
9213,
23204,
54717,
99044,
130068,
148856,
135205,
90951,
35303,
0,
0,
1329,
73,
73,
73,
73,
73,
73,
73,
73,
36775,
86767,
138792,
134211,
69503,
28055,
6025,
35773,
52739,
75772,
104340,
135770,
147806,
140925,
110111,
54807,
9735,
0,
0,
0,
73,
73,
73,
73,
73,
73,
73,
73,
31747,
83577,
132477,
139658,
95527,
61061,
59382,
81304,
103327,
114927,
134487,
150956,
157004,
127137,
73315,
27681,
0,
0,
1224,
625,
73,
73,
73,
73,
73,
73,
73,
73,
24002,
72522,
122953,
140032,
128532,
107179,
112454,
129290,
131768,
138447,
149494,
147026,
126680,
84587,
39976,
6206,
0,
0,
1197,
73,
73,
73,
73,
73,
73,
73,
73,
73,
12032,
50003,
100470,
134866,
142279,
136547,
142132,
154653,
161553,
146550,
131530,
110121,
75952,
44447,
14899,
0,
0,
3389,
73,
73,
73,
73,
73,
73,
73,
73,
73,
73,
4015,
28061,
61837,
99839,
123751,
136287,
147536,
140572,
135243,
117405,
92469,
63100,
33051,
15846,
6832,
0,
0,
73,
73,
73,
73,
73,
73,
73,
73,
73,
73,
73,
689,
8596,
27330,
59264,
85490,
96729,
105448,
101930,
92071,
69575,
45317,
26417,
8680,
0,
0,
2963,
2284,
73,
73,
73,
73,
73,
73,
73,
73,
73,
73,
73,
157,
1281,
4174,
16297,
39336,
64466,
67484,
53015,
42590,
33596,
22841,
5138,
0,
0,
3426,
699,
257,
73,
73,
73,
73,
73,
73,
73,
73,
73,
73,
73,
73,
242,
390,
920,
4036,
13814,
26014,
28220,
16166,
2760,
1741,
3972,
1796,
554,
73,
73,
73,
73,
73,
73,
73,
73,
73,
73,
73,
73,
73,
73,
73,
73,
73,
269,
465,
98,
0,
0,
1817,
3919,
2632,
1054,
1343,
625,
73,
73,
73,
73,
73,
73,
73,
73,
73,
73,
73,
73,
73,
73,
73,
73,
73,
73,
73,
73,
73,
73,
73,
73,
73,
73,
73,
73,
73,
73,
73,
73,
73,
73,
73,
73,
73,
73,
73,
73,
73,
73,
73,
73,
73,
73,
73,
73,
73,
73,
73,
73,
73,
73,
73,
73,
73,
73,
73,
73,
73,
73,
73,
73,
73,
0,
0,
0,
0,
0,
0,
0,
0,
0,
0,
0,
0,
0,
0,
0,
0,
0,
0,
0,
0,
0,
0,
0,
0,
0,
0,
0,
0,
0,
0,
0,
0,
0,
0,
0,
0,
0,
0,
0,
0,
0,
0,
0,
0,
0,
0,
0,
0,
0,
0,
0,
0,
0,
0,
0,
0,
0,
0,
0,
0,
0,
0,
0,
0,
0,
0,
0,
0,
0,
1605,
20254,
31350,
24510,
11687,
408,
0,
0,
0,
0,
0,
0,
0,
0,
0,
0,
0,
0,
0,
0,
0,
0,
0,
0,
0,
0,
0,
0,
12479,
42089,
57555,
42652,
17996,
4418,
0,
0,
0,
0,
0,
0,
0,
0,
0,
0,
0,
0,
0,
0,
0,
0,
0,
0,
0,
0,
0,
1214,
23537,
71721,
72055,
53324,
21847,
3178,
0,
0,
0,
0,
0,
0,
0,
0,
0,
0,
0,
0,
0,
0,
0,
0,
0,
0,
0,
0,
0,
22208,
56695,
92759,
72387,
40762,
19639,
12526,
7790,
2190,
0,
0,
0,
0,
0,
0,
0,
0,
0,
0,
0,
0,
0,
0,
0,
0,
0,
0,
22205,
51198,
81523,
94169,
66812,
34907,
18291,
32553,
29523,
12939,
1558,
0,
0,
0,
0,
0,
0,
0,
0,
0,
0,
0,
0,
0,
0,
0,
0,
11465,
55813,
72203,
85226,
79094,
56095,
38355,
24294,
42751,
54732,
25288,
12579,
0,
0,
0,
0,
0,
0,
0,
0,
0,
0,
0,
0,
0,
0,
0,
6664,
43124,
74478,
78238,
79825,
57202,
40517,
17048,
9444,
40977,
47796,
41375,
14443,
4662,
0,
0,
0,
0,
0,
0,
0,
0,
0,
0,
0,
0,
0,
0,
25657,
80118,
89439,
71160,
59332,
37540,
13726,
0,
0,
29823,
31325,
41131,
29137,
16968,
5355,
0,
0,
0,
0,
0,
0,
0,
0,
0,
0,
0,
0,
11032,
55314,
94006,
84701,
50573,
30507,
11370,
0,
0,
0,
12447,
34680,
24553,
34637,
30905,
13732,
580,
0,
0,
0,
0,
0,
0,
0,
0,
0,
0,
0,
19892,
80990,
95809,
54776,
32215,
4045,
0,
0,
0,
0,
7556,
35441,
38114,
25247,
36792,
13154,
175,
0,
0,
0,
0,
0,
0,
0,
0,
0,
0,
0,
41952,
90857,
67555,
33585,
0,
0,
0,
0,
0,
0,
13994,
35301,
53746,
37856,
33259,
11006,
6883,
0,
0,
0,
0,
0,
0,
0,
0,
0,
0,
3934,
63746,
97343,
49935,
7230,
0,
0,
0,
0,
0,
0,
11319,
45401,
75903,
64550,
18378,
0,
0,
0,
0,
0,
0,
0,
0,
0,
0,
0,
0,
8858,
84151,
96740,
38862,
0,
0,
0,
0,
0,
0,
0,
13531,
58667,
99747,
70812,
21319,
0,
0,
0,
0,
0,
0,
0,
0,
0,
0,
0,
0,
9607,
97973,
90789,
23449,
0,
0,
0,
0,
0,
0,
8060,
35480,
84121,
106841,
59836,
16134,
0,
0,
0,
0,
0,
0,
0,
0,
0,
0,
0,
0,
17111,
98788,
83893,
15710,
0,
0,
0,
0,
0,
6629,
37576,
63480,
98348,
94387,
43286,
0,
0,
0,
0,
0,
0,
0,
0,
0,
0,
0,
0,
0,
26494,
98830,
68143,
13526,
0,
11962,
14855,
25285,
28050,
46364,
60244,
89365,
102718,
60866,
24155,
0,
0,
0,
0,
0,
0,
0,
0,
0,
0,
0,
0,
0,
23234,
88173,
50908,
19101,
0,
39093,
42763,
44833,
46217,
70166,
80569,
92589,
76851,
38236,
0,
0,
0,
0,
0,
0,
0,
0,
0,
0,
0,
0,
0,
0,
18039,
67224,
47697,
18913,
10984,
52143,
55821,
59878,
73291,
83892,
81245,
68654,
33443,
5597,
0,
0,
0,
0,
0,
0,
0,
0,
0,
0,
0,
0,
0,
0,
18297,
36766,
30918,
11853,
18278,
67689,
70271,
63250,
72875,
73374,
44631,
31899,
1841,
0,
0,
0,
0,
0,
0,
0,
0,
0,
0,
0,
0,
0,
0,
0,
10920,
25429,
17446,
4926,
17679,
52835,
62612,
52698,
41034,
32494,
14542,
702,
0,
0,
0,
0,
0,
0,
0,
0,
0,
0,
0,
0,
0,
0,
0,
0,
1184,
19703,
19361,
15,
13601,
18382,
18425,
19363,
12332,
8772,
0,
0,
0,
0,
0,
0,
0,
0,
0,
0,
0,
0,
0,
0,
0,
0,
0,
0,
0,
7954,
16644,
5346,
6786,
4439,
3364,
2439,
0,
0,
0,
0,
0,
0,
0,
0,
0,
0,
0,
0,
0,
0,
0,
0,
0,
0,
0,
0,
0,
1262,
4121,
10732,
16515,
8199,
0,
0,
0,
0,
0,
0,
0,
0,
0,
0,
0,
0,
0,
0,
0,
0,
0,
0,
0,
0,
0,
0,
0,
0,
0,
2797,
7119,
6642,
0,
0,
0,
0,
0,
0,
0,
0,
0,
0,
0,
0,
0,
0,
0,
0,
0,
0,
0,
0,
0,
0,
0,
0,
0,
0,
0,
0,
0,
0,
0,
0,
0,
0,
0,
0,
0,
0,
0,
0,
0,
0,
0,
0,
0,
0,
0,
0,
0,
0,
0,
0,
0,
0,
0,
0,
0,
0,
0,
0,
0,
0,
0,
0,
0,
0,
0,
0,
0,
0,
0,
0,
0,
0,
0,
0,
0,
0,
0,
0,
0,
0,
0,
0,
0,
0,
0,
0,
0,
0,
0,
0,
0,
0,
0,
0,
0,
0,
0,
0,
0,
0,
0,
0,
0,
0,
0,
0,
0,
0,
0,
0,
0,
0,
0,
0,
0,
0,
0,
0,
0,
0,
0,
0,
0,
0,
0,
0,
0,
0,
0,
0,
0,
0,
0,
0,
0,
0,
0,
0,
2039,
17352,
15840,
4927,
0,
0,
0,
0,
0,
0,
0,
0,
0,
0,
0,
0,
0,
0,
0,
0,
0,
0,
0,
0,
0,
0,
0,
0,
0,
5346,
25110,
20795,
4736,
0,
0,
0,
0,
0,
0,
0,
0,
0,
0,
0,
0,
0,
0,
0,
0,
0,
0,
0,
0,
0,
0,
0,
0,
11831,
50475,
44309,
18901,
0,
0,
0,
0,
0,
0,
0,
0,
0,
0,
0,
0,
0,
0,
0,
0,
0,
0,
0,
0,
0,
0,
0,
0,
25843,
62927,
54513,
33527,
9841,
0,
0,
0,
0,
0,
0,
0,
0,
0,
0,
0,
0,
0,
0,
0,
0,
0,
0,
0,
0,
0,
0,
0,
46521,
81538,
62419,
41286,
27322,
10498,
0,
0,
0,
0,
0,
0,
0,
0,
0,
0,
0,
0,
0,
0,
0,
0,
0,
0,
0,
0,
0,
7449,
45217,
59972,
42473,
31310,
44827,
36394,
13901,
0,
0,
0,
0,
0,
0,
0,
0,
0,
0,
0,
0,
0,
0,
0,
0,
0,
0,
0,
9526,
22219,
30893,
26482,
8398,
14661,
41855,
52263,
35289,
7153,
0,
0,
0,
0,
0,
0,
0,
0,
0,
0,
0,
0,
0,
0,
0,
0,
0,
10077,
25597,
30886,
32322,
20754,
0,
0,
30265,
59312,
52945,
30322,
2387,
0,
0,
0,
0,
0,
0,
0,
0,
0,
0,
0,
0,
0,
0,
0,
5777,
27005,
33961,
48582,
47239,
23343,
0,
0,
14350,
46778,
51196,
44087,
19748,
0,
0,
0,
0,
0,
0,
0,
0,
0,
0,
0,
0,
0,
0,
0,
33940,
46817,
62771,
62041,
39395,
13915,
0,
0,
0,
24405,
55389,
50505,
35341,
8716,
0,
0,
0,
0,
0,
0,
0,
0,
0,
0,
0,
0,
0,
14128,
59136,
68049,
60784,
38978,
15427,
124,
0,
0,
0,
0,
49051,
72364,
49206,
21021,
0,
0,
0,
0,
0,
0,
0,
0,
0,
0,
0,
0,
0,
60408,
90103,
60022,
31876,
14955,
2130,
0,
0,
0,
0,
0,
54038,
82658,
47208,
18961,
0,
0,
0,
0,
0,
0,
0,
0,
0,
0,
0,
0,
21910,
92448,
81400,
36563,
4736,
0,
0,
0,
0,
0,
0,
0,
54409,
92715,
65761,
22114,
3295,
0,
0,
0,
0,
0,
0,
0,
0,
0,
0,
0,
48344,
102490,
63418,
23662,
0,
0,
0,
0,
0,
0,
0,
0,
56396,
94601,
58404,
12569,
0,
0,
0,
0,
0,
0,
0,
0,
0,
0,
0,
0,
57189,
104799,
51690,
10211,
0,
0,
0,
0,
0,
0,
0,
15869,
79951,
92581,
48764,
15452,
0,
0,
0,
0,
0,
0,
0,
0,
0,
0,
0,
0,
59982,
102963,
48779,
12987,
6590,
6556,
0,
0,
0,
0,
7998,
49604,
92282,
73017,
26477,
0,
0,
0,
0,
0,
0,
0,
0,
0,
0,
0,
0,
0,
50961,
92502,
46880,
5864,
0,
0,
0,
0,
0,
0,
32274,
83785,
89901,
49352,
15914,
0,
0,
0,
0,
0,
0,
0,
0,
0,
0,
0,
0,
0,
31473,
61550,
13302,
0,
0,
0,
0,
0,
5395,
19207,
53856,
90177,
64543,
22542,
0,
0,
0,
0,
0,
0,
0,
0,
0,
0,
0,
0,
0,
0,
0,
13058,
0,
0,
0,
0,
0,
12060,
23992,
35215,
77053,
75449,
35707,
10307,
0,
0,
0,
0,
0,
0,
0,
0,
0,
0,
0,
0,
0,
0,
0,
0,
0,
0,
10524,
17017,
18629,
32762,
52366,
63259,
65100,
41030,
8495,
0,
0,
0,
0,
0,
0,
0,
0,
0,
0,
0,
0,
0,
0,
0,
0,
0,
0,
0,
6066,
17705,
34020,
53614,
63286,
49787,
29979,
16379,
1806,
0,
0,
0,
0,
0,
0,
0,
0,
0,
0,
0,
0,
0,
0,
0,
0,
0,
0,
0,
24455,
33889,
44591,
49185,
35340,
21075,
7801,
0,
0,
0,
0,
0,
0,
0,
0,
0,
0,
0,
0,
0,
0,
0,
0,
0,
0,
0,
0,
18087,
29108,
21464,
23043,
27872,
15567,
0,
0,
0,
0,
0,
0,
0,
0,
0,
0,
0,
0,
0,
0,
0,
0,
0,
0,
0,
0,
0,
0,
6807,
18881,
17121,
7414,
2529,
587,
0,
0,
0,
0,
0,
0,
0,
0,
0,
0,
0,
0,
0,
0,
0,
0,
0,
0,
0,
0,
0,
0,
0,
0,
0,
0,
0,
0,
0,
0,
0,
0,
0,
0,
0,
0,
0,
0,
0,
0,
0,
0,
0,
0,
0,
0,
0,
0,
0,
0,
0,
0,
0,
0,
0,
0,
0,
0,
0,
0,
0,
0,
0,
0,
0,
0,
0,
